{
  "version": "1.0",
  "truncation": null,
  "padding": null,
  "added_tokens": [
    {
      "id": 0,
      "special": true,
      "content": "[PAD]",
      "single_word": false,
      "lstrip": false,
      "rstrip": false,
      "normalized": false
    },
    {
      "id": 1,
      "special": true,
      "content": "[UNK]",
      "single_word": false,
      "lstrip": false,
      "rstrip": false,
      "normalized": false
    },
    {
      "id": 2,
      "special": true,
      "content": "[CLS]",
      "single_word": false,
      "lstrip": false,
      "rstrip": false,
      "normalized": false
    },
    {
      "id": 3,
      "special": true,
      "content": "[SEP]",
      "single_word": false,
      "lstrip": false,
      "rstrip": false,
      "normalized": false
    },
    {
      "id": 4,
      "special": true,
      "content": "[MASK]",
      "single_word": false,
      "lstrip": false,
      "rstrip": false,
      "normalized": false
    },
    {
      "id": 5,
      "special": true,
      "content": "[MATH]",
      "single_word": false,
      "lstrip": false,
      "rstrip": false,
      "normalized": false
    },
    {
      "id": 6,
      "special": true,
      "content": "[BOS]",
      "single_word": false,
      "lstrip": false,
      "rstrip": false,
      "normalized": false
    },
    {
      "id": 7,
      "special": true,
      "content": "[EOS]",
      "single_word": false,
      "lstrip": false,
      "rstrip": false,
      "normalized": false
    },
    {
      "id": 8,
      "special": true,
      "content": "[UNK0]",
      "single_word": false,
      "lstrip": false,
      "rstrip": false,
      "normalized": false
    },
    {
      "id": 9,
      "special": true,
      "content": "[UNK1]",
      "single_word": false,
      "lstrip": false,
      "rstrip": false,
      "normalized": false
    },
    {
      "id": 10,
      "special": true,
      "content": "[UNK2]",
      "single_word": false,
      "lstrip": false,
      "rstrip": false,
      "normalized": false
    },
    {
      "id": 11,
      "special": true,
      "content": "[UNK3]",
      "single_word": false,
      "lstrip": false,
      "rstrip": false,
      "normalized": false
    },
    {
      "id": 12,
      "special": true,
      "content": "[UNK4]",
      "single_word": false,
      "lstrip": false,
      "rstrip": false,
      "normalized": false
    },
    {
      "id": 13,
      "special": true,
      "content": "[UNK5]",
      "single_word": false,
      "lstrip": false,
      "rstrip": false,
      "normalized": false
    },
    {
      "id": 14,
      "special": true,
      "content": "[UNK6]",
      "single_word": false,
      "lstrip": false,
      "rstrip": false,
      "normalized": false
    },
    {
      "id": 15,
      "special": true,
      "content": "[UNK7]",
      "single_word": false,
      "lstrip": false,
      "rstrip": false,
      "normalized": false
    },
    {
      "id": 16,
      "special": true,
      "content": "[UNK8]",
      "single_word": false,
      "lstrip": false,
      "rstrip": false,
      "normalized": false
    },
    {
      "id": 17,
      "special": true,
      "content": "[UNK9]",
      "single_word": false,
      "lstrip": false,
      "rstrip": false,
      "normalized": false
    },
    {
      "id": 18,
      "special": true,
      "content": "[unused0]",
      "single_word": false,
      "lstrip": false,
      "rstrip": false,
      "normalized": false
    },
    {
      "id": 19,
      "special": true,
      "content": "[unused1]",
      "single_word": false,
      "lstrip": false,
      "rstrip": false,
      "normalized": false
    },
    {
      "id": 20,
      "special": true,
      "content": "[unused2]",
      "single_word": false,
      "lstrip": false,
      "rstrip": false,
      "normalized": false
    },
    {
      "id": 21,
      "special": true,
      "content": "[unused3]",
      "single_word": false,
      "lstrip": false,
      "rstrip": false,
      "normalized": false
    },
    {
      "id": 22,
      "special": true,
      "content": "[unused4]",
      "single_word": false,
      "lstrip": false,
      "rstrip": false,
      "normalized": false
    },
    {
      "id": 23,
      "special": true,
      "content": "[unused5]",
      "single_word": false,
      "lstrip": false,
      "rstrip": false,
      "normalized": false
    },
    {
      "id": 24,
      "special": true,
      "content": "[unused6]",
      "single_word": false,
      "lstrip": false,
      "rstrip": false,
      "normalized": false
    },
    {
      "id": 25,
      "special": true,
      "content": "[unused7]",
      "single_word": false,
      "lstrip": false,
      "rstrip": false,
      "normalized": false
    },
    {
      "id": 26,
      "special": true,
      "content": "[unused8]",
      "single_word": false,
      "lstrip": false,
      "rstrip": false,
      "normalized": false
    },
    {
      "id": 27,
      "special": true,
      "content": "[unused9]",
      "single_word": false,
      "lstrip": false,
      "rstrip": false,
      "normalized": false
    },
    {
      "id": 28,
      "special": true,
      "content": "[unused10]",
      "single_word": false,
      "lstrip": false,
      "rstrip": false,
      "normalized": false
    },
    {
      "id": 29,
      "special": true,
      "content": "[unused11]",
      "single_word": false,
      "lstrip": false,
      "rstrip": false,
      "normalized": false
    },
    {
      "id": 30,
      "special": true,
      "content": "[unused12]",
      "single_word": false,
      "lstrip": false,
      "rstrip": false,
      "normalized": false
    },
    {
      "id": 31,
      "special": true,
      "content": "[unused13]",
      "single_word": false,
      "lstrip": false,
      "rstrip": false,
      "normalized": false
    },
    {
      "id": 32,
      "special": true,
      "content": "[unused14]",
      "single_word": false,
      "lstrip": false,
      "rstrip": false,
      "normalized": false
    },
    {
      "id": 33,
      "special": true,
      "content": "[unused15]",
      "single_word": false,
      "lstrip": false,
      "rstrip": false,
      "normalized": false
    },
    {
      "id": 34,
      "special": true,
      "content": "[unused16]",
      "single_word": false,
      "lstrip": false,
      "rstrip": false,
      "normalized": false
    },
    {
      "id": 35,
      "special": true,
      "content": "[unused17]",
      "single_word": false,
      "lstrip": false,
      "rstrip": false,
      "normalized": false
    },
    {
      "id": 36,
      "special": true,
      "content": "[unused18]",
      "single_word": false,
      "lstrip": false,
      "rstrip": false,
      "normalized": false
    },
    {
      "id": 37,
      "special": true,
      "content": "[unused19]",
      "single_word": false,
      "lstrip": false,
      "rstrip": false,
      "normalized": false
    },
    {
      "id": 38,
      "special": true,
      "content": "[unused20]",
      "single_word": false,
      "lstrip": false,
      "rstrip": false,
      "normalized": false
    },
    {
      "id": 39,
      "special": true,
      "content": "[unused21]",
      "single_word": false,
      "lstrip": false,
      "rstrip": false,
      "normalized": false
    },
    {
      "id": 40,
      "special": true,
      "content": "[unused22]",
      "single_word": false,
      "lstrip": false,
      "rstrip": false,
      "normalized": false
    },
    {
      "id": 41,
      "special": true,
      "content": "[unused23]",
      "single_word": false,
      "lstrip": false,
      "rstrip": false,
      "normalized": false
    },
    {
      "id": 42,
      "special": true,
      "content": "[unused24]",
      "single_word": false,
      "lstrip": false,
      "rstrip": false,
      "normalized": false
    },
    {
      "id": 43,
      "special": true,
      "content": "[unused25]",
      "single_word": false,
      "lstrip": false,
      "rstrip": false,
      "normalized": false
    },
    {
      "id": 44,
      "special": true,
      "content": "[unused26]",
      "single_word": false,
      "lstrip": false,
      "rstrip": false,
      "normalized": false
    },
    {
      "id": 45,
      "special": true,
      "content": "[unused27]",
      "single_word": false,
      "lstrip": false,
      "rstrip": false,
      "normalized": false
    },
    {
      "id": 46,
      "special": true,
      "content": "[unused28]",
      "single_word": false,
      "lstrip": false,
      "rstrip": false,
      "normalized": false
    },
    {
      "id": 47,
      "special": true,
      "content": "[unused29]",
      "single_word": false,
      "lstrip": false,
      "rstrip": false,
      "normalized": false
    },
    {
      "id": 48,
      "special": true,
      "content": "[unused30]",
      "single_word": false,
      "lstrip": false,
      "rstrip": false,
      "normalized": false
    },
    {
      "id": 49,
      "special": true,
      "content": "[unused31]",
      "single_word": false,
      "lstrip": false,
      "rstrip": false,
      "normalized": false
    },
    {
      "id": 50,
      "special": true,
      "content": "[unused32]",
      "single_word": false,
      "lstrip": false,
      "rstrip": false,
      "normalized": false
    },
    {
      "id": 51,
      "special": true,
      "content": "[unused33]",
      "single_word": false,
      "lstrip": false,
      "rstrip": false,
      "normalized": false
    },
    {
      "id": 52,
      "special": true,
      "content": "[unused34]",
      "single_word": false,
      "lstrip": false,
      "rstrip": false,
      "normalized": false
    },
    {
      "id": 53,
      "special": true,
      "content": "[unused35]",
      "single_word": false,
      "lstrip": false,
      "rstrip": false,
      "normalized": false
    },
    {
      "id": 54,
      "special": true,
      "content": "[unused36]",
      "single_word": false,
      "lstrip": false,
      "rstrip": false,
      "normalized": false
    },
    {
      "id": 55,
      "special": true,
      "content": "[unused37]",
      "single_word": false,
      "lstrip": false,
      "rstrip": false,
      "normalized": false
    },
    {
      "id": 56,
      "special": true,
      "content": "[unused38]",
      "single_word": false,
      "lstrip": false,
      "rstrip": false,
      "normalized": false
    },
    {
      "id": 57,
      "special": true,
      "content": "[unused39]",
      "single_word": false,
      "lstrip": false,
      "rstrip": false,
      "normalized": false
    },
    {
      "id": 58,
      "special": true,
      "content": "[unused40]",
      "single_word": false,
      "lstrip": false,
      "rstrip": false,
      "normalized": false
    },
    {
      "id": 59,
      "special": true,
      "content": "[unused41]",
      "single_word": false,
      "lstrip": false,
      "rstrip": false,
      "normalized": false
    },
    {
      "id": 60,
      "special": true,
      "content": "[unused42]",
      "single_word": false,
      "lstrip": false,
      "rstrip": false,
      "normalized": false
    },
    {
      "id": 61,
      "special": true,
      "content": "[unused43]",
      "single_word": false,
      "lstrip": false,
      "rstrip": false,
      "normalized": false
    },
    {
      "id": 62,
      "special": true,
      "content": "[unused44]",
      "single_word": false,
      "lstrip": false,
      "rstrip": false,
      "normalized": false
    },
    {
      "id": 63,
      "special": true,
      "content": "[unused45]",
      "single_word": false,
      "lstrip": false,
      "rstrip": false,
      "normalized": false
    },
    {
      "id": 64,
      "special": true,
      "content": "[unused46]",
      "single_word": false,
      "lstrip": false,
      "rstrip": false,
      "normalized": false
    },
    {
      "id": 65,
      "special": true,
      "content": "[unused47]",
      "single_word": false,
      "lstrip": false,
      "rstrip": false,
      "normalized": false
    },
    {
      "id": 66,
      "special": true,
      "content": "[unused48]",
      "single_word": false,
      "lstrip": false,
      "rstrip": false,
      "normalized": false
    },
    {
      "id": 67,
      "special": true,
      "content": "[unused49]",
      "single_word": false,
      "lstrip": false,
      "rstrip": false,
      "normalized": false
    },
    {
      "id": 68,
      "special": true,
      "content": "[unused50]",
      "single_word": false,
      "lstrip": false,
      "rstrip": false,
      "normalized": false
    },
    {
      "id": 69,
      "special": true,
      "content": "[unused51]",
      "single_word": false,
      "lstrip": false,
      "rstrip": false,
      "normalized": false
    },
    {
      "id": 70,
      "special": true,
      "content": "[unused52]",
      "single_word": false,
      "lstrip": false,
      "rstrip": false,
      "normalized": false
    },
    {
      "id": 71,
      "special": true,
      "content": "[unused53]",
      "single_word": false,
      "lstrip": false,
      "rstrip": false,
      "normalized": false
    },
    {
      "id": 72,
      "special": true,
      "content": "[unused54]",
      "single_word": false,
      "lstrip": false,
      "rstrip": false,
      "normalized": false
    },
    {
      "id": 73,
      "special": true,
      "content": "[unused55]",
      "single_word": false,
      "lstrip": false,
      "rstrip": false,
      "normalized": false
    },
    {
      "id": 74,
      "special": true,
      "content": "[unused56]",
      "single_word": false,
      "lstrip": false,
      "rstrip": false,
      "normalized": false
    },
    {
      "id": 75,
      "special": true,
      "content": "[unused57]",
      "single_word": false,
      "lstrip": false,
      "rstrip": false,
      "normalized": false
    },
    {
      "id": 76,
      "special": true,
      "content": "[unused58]",
      "single_word": false,
      "lstrip": false,
      "rstrip": false,
      "normalized": false
    },
    {
      "id": 77,
      "special": true,
      "content": "[unused59]",
      "single_word": false,
      "lstrip": false,
      "rstrip": false,
      "normalized": false
    },
    {
      "id": 78,
      "special": true,
      "content": "[unused60]",
      "single_word": false,
      "lstrip": false,
      "rstrip": false,
      "normalized": false
    },
    {
      "id": 79,
      "special": true,
      "content": "[unused61]",
      "single_word": false,
      "lstrip": false,
      "rstrip": false,
      "normalized": false
    },
    {
      "id": 80,
      "special": true,
      "content": "[unused62]",
      "single_word": false,
      "lstrip": false,
      "rstrip": false,
      "normalized": false
    },
    {
      "id": 81,
      "special": true,
      "content": "[unused63]",
      "single_word": false,
      "lstrip": false,
      "rstrip": false,
      "normalized": false
    },
    {
      "id": 82,
      "special": true,
      "content": "[unused64]",
      "single_word": false,
      "lstrip": false,
      "rstrip": false,
      "normalized": false
    },
    {
      "id": 83,
      "special": true,
      "content": "[unused65]",
      "single_word": false,
      "lstrip": false,
      "rstrip": false,
      "normalized": false
    },
    {
      "id": 84,
      "special": true,
      "content": "[unused66]",
      "single_word": false,
      "lstrip": false,
      "rstrip": false,
      "normalized": false
    },
    {
      "id": 85,
      "special": true,
      "content": "[unused67]",
      "single_word": false,
      "lstrip": false,
      "rstrip": false,
      "normalized": false
    },
    {
      "id": 86,
      "special": true,
      "content": "[unused68]",
      "single_word": false,
      "lstrip": false,
      "rstrip": false,
      "normalized": false
    },
    {
      "id": 87,
      "special": true,
      "content": "[unused69]",
      "single_word": false,
      "lstrip": false,
      "rstrip": false,
      "normalized": false
    },
    {
      "id": 88,
      "special": true,
      "content": "[unused70]",
      "single_word": false,
      "lstrip": false,
      "rstrip": false,
      "normalized": false
    },
    {
      "id": 89,
      "special": true,
      "content": "[unused71]",
      "single_word": false,
      "lstrip": false,
      "rstrip": false,
      "normalized": false
    },
    {
      "id": 90,
      "special": true,
      "content": "[unused72]",
      "single_word": false,
      "lstrip": false,
      "rstrip": false,
      "normalized": false
    },
    {
      "id": 91,
      "special": true,
      "content": "[unused73]",
      "single_word": false,
      "lstrip": false,
      "rstrip": false,
      "normalized": false
    },
    {
      "id": 92,
      "special": true,
      "content": "[unused74]",
      "single_word": false,
      "lstrip": false,
      "rstrip": false,
      "normalized": false
    },
    {
      "id": 93,
      "special": true,
      "content": "[unused75]",
      "single_word": false,
      "lstrip": false,
      "rstrip": false,
      "normalized": false
    },
    {
      "id": 94,
      "special": true,
      "content": "[unused76]",
      "single_word": false,
      "lstrip": false,
      "rstrip": false,
      "normalized": false
    },
    {
      "id": 95,
      "special": true,
      "content": "[unused77]",
      "single_word": false,
      "lstrip": false,
      "rstrip": false,
      "normalized": false
    },
    {
      "id": 96,
      "special": true,
      "content": "[unused78]",
      "single_word": false,
      "lstrip": false,
      "rstrip": false,
      "normalized": false
    },
    {
      "id": 97,
      "special": true,
      "content": "[unused79]",
      "single_word": false,
      "lstrip": false,
      "rstrip": false,
      "normalized": false
    },
    {
      "id": 98,
      "special": true,
      "content": "[unused80]",
      "single_word": false,
      "lstrip": false,
      "rstrip": false,
      "normalized": false
    },
    {
      "id": 99,
      "special": true,
      "content": "[unused81]",
      "single_word": false,
      "lstrip": false,
      "rstrip": false,
      "normalized": false
    },
    {
      "id": 100,
      "special": true,
      "content": "[unused82]",
      "single_word": false,
      "lstrip": false,
      "rstrip": false,
      "normalized": false
    },
    {
      "id": 101,
      "special": true,
      "content": "[unused83]",
      "single_word": false,
      "lstrip": false,
      "rstrip": false,
      "normalized": false
    },
    {
      "id": 102,
      "special": true,
      "content": "[unused84]",
      "single_word": false,
      "lstrip": false,
      "rstrip": false,
      "normalized": false
    },
    {
      "id": 103,
      "special": true,
      "content": "[unused85]",
      "single_word": false,
      "lstrip": false,
      "rstrip": false,
      "normalized": false
    },
    {
      "id": 104,
      "special": true,
      "content": "[unused86]",
      "single_word": false,
      "lstrip": false,
      "rstrip": false,
      "normalized": false
    },
    {
      "id": 105,
      "special": true,
      "content": "[unused87]",
      "single_word": false,
      "lstrip": false,
      "rstrip": false,
      "normalized": false
    },
    {
      "id": 106,
      "special": true,
      "content": "[unused88]",
      "single_word": false,
      "lstrip": false,
      "rstrip": false,
      "normalized": false
    },
    {
      "id": 107,
      "special": true,
      "content": "[unused89]",
      "single_word": false,
      "lstrip": false,
      "rstrip": false,
      "normalized": false
    },
    {
      "id": 108,
      "special": true,
      "content": "[unused90]",
      "single_word": false,
      "lstrip": false,
      "rstrip": false,
      "normalized": false
    },
    {
      "id": 109,
      "special": true,
      "content": "[unused91]",
      "single_word": false,
      "lstrip": false,
      "rstrip": false,
      "normalized": false
    },
    {
      "id": 110,
      "special": true,
      "content": "[unused92]",
      "single_word": false,
      "lstrip": false,
      "rstrip": false,
      "normalized": false
    },
    {
      "id": 111,
      "special": true,
      "content": "[unused93]",
      "single_word": false,
      "lstrip": false,
      "rstrip": false,
      "normalized": false
    },
    {
      "id": 112,
      "special": true,
      "content": "[unused94]",
      "single_word": false,
      "lstrip": false,
      "rstrip": false,
      "normalized": false
    },
    {
      "id": 113,
      "special": true,
      "content": "[unused95]",
      "single_word": false,
      "lstrip": false,
      "rstrip": false,
      "normalized": false
    },
    {
      "id": 114,
      "special": true,
      "content": "[unused96]",
      "single_word": false,
      "lstrip": false,
      "rstrip": false,
      "normalized": false
    },
    {
      "id": 115,
      "special": true,
      "content": "[unused97]",
      "single_word": false,
      "lstrip": false,
      "rstrip": false,
      "normalized": false
    },
    {
      "id": 116,
      "special": true,
      "content": "[unused98]",
      "single_word": false,
      "lstrip": false,
      "rstrip": false,
      "normalized": false
    },
    {
      "id": 117,
      "special": true,
      "content": "[unused99]",
      "single_word": false,
      "lstrip": false,
      "rstrip": false,
      "normalized": false
    }
  ],
  "normalizer": {
    "type": "BertNormalizer",
    "clean_text": true,
    "handle_chinese_chars": false,
    "strip_accents": null,
    "lowercase": false
  },
  "pre_tokenizer": {
    "type": "BertPreTokenizer"
  },
  "post_processor": {
    "type": "TemplateProcessing",
    "single": [
      {
        "SpecialToken": {
          "id": "[CLS]",
          "type_id": 0
        }
      },
      {
        "Sequence": {
          "id": "A",
          "type_id": 0
        }
      },
      {
        "SpecialToken": {
          "id": "[SEP]",
          "type_id": 0
        }
      }
    ],
    "pair": [
      {
        "SpecialToken": {
          "id": "[CLS]",
          "type_id": 0
        }
      },
      {
        "Sequence": {
          "id": "A",
          "type_id": 0
        }
      },
      {
        "SpecialToken": {
          "id": "[SEP]",
          "type_id": 0
        }
      },
      {
        "Sequence": {
          "id": "B",
          "type_id": 1
        }
      },
      {
        "SpecialToken": {
          "id": "[SEP]",
          "type_id": 1
        }
      }
    ],
    "special_tokens": {
      "[CLS]": {
        "id": "[CLS]",
        "ids": [
          2
        ],
        "tokens": [
          "[CLS]"
        ]
      },
      "[SEP]": {
        "id": "[SEP]",
        "ids": [
          3
        ],
        "tokens": [
          "[SEP]"
        ]
      }
    }
  },
  "decoder": {
    "type": "WordPiece",
    "prefix": "##",
    "cleanup": true
  },
  "model": {
    "type": "WordPiece",
    "unk_token": "[UNK]",
    "continuing_subword_prefix": "##",
    "max_input_chars_per_word": 100,
    "vocab": {
      "[PAD]": 0,
      "[UNK]": 1,
      "[CLS]": 2,
      "[SEP]": 3,
      "[MASK]": 4,
      "[MATH]": 5,
      "[BOS]": 6,
      "[EOS]": 7,
      "[UNK0]": 8,
      "[UNK1]": 9,
      "[UNK2]": 10,
      "[UNK3]": 11,
      "[UNK4]": 12,
      "[UNK5]": 13,
      "[UNK6]": 14,
      "[UNK7]": 15,
      "[UNK8]": 16,
      "[UNK9]": 17,
      "[unused0]": 18,
      "[unused1]": 19,
      "[unused2]": 20,
      "[unused3]": 21,
      "[unused4]": 22,
      "[unused5]": 23,
      "[unused6]": 24,
      "[unused7]": 25,
      "[unused8]": 26,
      "[unused9]": 27,
      "[unused10]": 28,
      "[unused11]": 29,
      "[unused12]": 30,
      "[unused13]": 31,
      "[unused14]": 32,
      "[unused15]": 33,
      "[unused16]": 34,
      "[unused17]": 35,
      "[unused18]": 36,
      "[unused19]": 37,
      "[unused20]": 38,
      "[unused21]": 39,
      "[unused22]": 40,
      "[unused23]": 41,
      "[unused24]": 42,
      "[unused25]": 43,
      "[unused26]": 44,
      "[unused27]": 45,
      "[unused28]": 46,
      "[unused29]": 47,
      "[unused30]": 48,
      "[unused31]": 49,
      "[unused32]": 50,
      "[unused33]": 51,
      "[unused34]": 52,
      "[unused35]": 53,
      "[unused36]": 54,
      "[unused37]": 55,
      "[unused38]": 56,
      "[unused39]": 57,
      "[unused40]": 58,
      "[unused41]": 59,
      "[unused42]": 60,
      "[unused43]": 61,
      "[unused44]": 62,
      "[unused45]": 63,
      "[unused46]": 64,
      "[unused47]": 65,
      "[unused48]": 66,
      "[unused49]": 67,
      "[unused50]": 68,
      "[unused51]": 69,
      "[unused52]": 70,
      "[unused53]": 71,
      "[unused54]": 72,
      "[unused55]": 73,
      "[unused56]": 74,
      "[unused57]": 75,
      "[unused58]": 76,
      "[unused59]": 77,
      "[unused60]": 78,
      "[unused61]": 79,
      "[unused62]": 80,
      "[unused63]": 81,
      "[unused64]": 82,
      "[unused65]": 83,
      "[unused66]": 84,
      "[unused67]": 85,
      "[unused68]": 86,
      "[unused69]": 87,
      "[unused70]": 88,
      "[unused71]": 89,
      "[unused72]": 90,
      "[unused73]": 91,
      "[unused74]": 92,
      "[unused75]": 93,
      "[unused76]": 94,
      "[unused77]": 95,
      "[unused78]": 96,
      "[unused79]": 97,
      "[unused80]": 98,
      "[unused81]": 99,
      "[unused82]": 100,
      "[unused83]": 101,
      "[unused84]": 102,
      "[unused85]": 103,
      "[unused86]": 104,
      "[unused87]": 105,
      "[unused88]": 106,
      "[unused89]": 107,
      "[unused90]": 108,
      "[unused91]": 109,
      "[unused92]": 110,
      "[unused93]": 111,
      "[unused94]": 112,
      "[unused95]": 113,
      "[unused96]": 114,
      "[unused97]": 115,
      "[unused98]": 116,
      "[unused99]": 117,
      "!": 118,
      "\"": 119,
      "#": 120,
      "$": 121,
      "%": 122,
      "&": 123,
      "'": 124,
      "(": 125,
      ")": 126,
      "*": 127,
      "+": 128,
      ",": 129,
      "-": 130,
      ".": 131,
      "/": 132,
      "0": 133,
      "1": 134,
      "2": 135,
      "3": 136,
      "4": 137,
      "5": 138,
      "6": 139,
      "7": 140,
      "8": 141,
      "9": 142,
      ":": 143,
      ";": 144,
      "<": 145,
      "=": 146,
      ">": 147,
      "?": 148,
      "@": 149,
      "[": 150,
      "\\": 151,
      "]": 152,
      "^": 153,
      "_": 154,
      "`": 155,
      "a": 156,
      "b": 157,
      "c": 158,
      "d": 159,
      "e": 160,
      "f": 161,
      "g": 162,
      "h": 163,
      "i": 164,
      "j": 165,
      "k": 166,
      "l": 167,
      "m": 168,
      "n": 169,
      "o": 170,
      "p": 171,
      "q": 172,
      "r": 173,
      "s": 174,
      "t": 175,
      "u": 176,
      "v": 177,
      "w": 178,
      "x": 179,
      "y": 180,
      "z": 181,
      "{": 182,
      "|": 183,
      "}": 184,
      "~": 185,
      "°": 186,
      "×": 187,
      "α": 188,
      "‘": 189,
      "’": 190,
      "“": 191,
      "”": 192,
      "․": 193,
      "…": 194,
      "‧": 195,
      "℃": 196,
      "ⅰ": 197,
      "ⅱ": 198,
      "ⅲ": 199,
      "ⅳ": 200,
      "∙": 201,
      "∠": 202,
      "∵": 203,
      "⋮": 204,
      "⋯": 205,
      "⋱": 206,
      "〈": 207,
      "〉": 208,
      "⑴": 209,
      "⑵": 210,
      "⑶": 211,
      "⑷": 212,
      "ⓜ": 213,
      "ⓝ": 214,
      "─": 215,
      "△": 216,
      "◆": 217,
      "◇": 218,
      "○": 219,
      "◎": 220,
      "◦": 221,
      "◯": 222,
      "★": 223,
      "☆": 224,
      "♠": 225,
      "♣": 226,
      "♥": 227,
      "♩": 228,
      "♪": 229,
      "✆": 230,
      "「": 231,
      "」": 232,
      "ㄱ": 233,
      "ㄴ": 234,
      "ㄷ": 235,
      "ㅍ": 236,
      "ㆍ": 237,
      "㈎": 238,
      "㈏": 239,
      "㉠": 240,
      "㉡": 241,
      "㉢": 242,
      "㉣": 243,
      "㉤": 244,
      "凹": 245,
      "가": 246,
      "각": 247,
      "간": 248,
      "갈": 249,
      "감": 250,
      "갑": 251,
      "값": 252,
      "갔": 253,
      "강": 254,
      "갖": 255,
      "같": 256,
      "갚": 257,
      "개": 258,
      "객": 259,
      "걀": 260,
      "거": 261,
      "건": 262,
      "걷": 263,
      "걸": 264,
      "검": 265,
      "것": 266,
      "겉": 267,
      "게": 268,
      "겠": 269,
      "겨": 270,
      "격": 271,
      "결": 272,
      "겹": 273,
      "겼": 274,
      "경": 275,
      "계": 276,
      "고": 277,
      "곡": 278,
      "곧": 279,
      "골": 280,
      "곰": 281,
      "곱": 282,
      "곳": 283,
      "공": 284,
      "과": 285,
      "관": 286,
      "괄": 287,
      "광": 288,
      "교": 289,
      "구": 290,
      "국": 291,
      "군": 292,
      "굵": 293,
      "굽": 294,
      "궁": 295,
      "권": 296,
      "궤": 297,
      "귀": 298,
      "귄": 299,
      "규": 300,
      "균": 301,
      "귤": 302,
      "그": 303,
      "극": 304,
      "근": 305,
      "글": 306,
      "금": 307,
      "급": 308,
      "긋": 309,
      "긍": 310,
      "기": 311,
      "긴": 312,
      "길": 313,
      "김": 314,
      "깃": 315,
      "깊": 316,
      "까": 317,
      "깔": 318,
      "깥": 319,
      "깨": 320,
      "꺼": 321,
      "껑": 322,
      "께": 323,
      "꼬": 324,
      "꼭": 325,
      "꼴": 326,
      "꽂": 327,
      "꽃": 328,
      "꾸": 329,
      "꾼": 330,
      "꿈": 331,
      "꿰": 332,
      "꿴": 333,
      "뀌": 334,
      "뀐": 335,
      "뀔": 336,
      "끄": 337,
      "끌": 338,
      "끓": 339,
      "끝": 340,
      "끼": 341,
      "낀": 342,
      "나": 343,
      "낙": 344,
      "난": 345,
      "날": 346,
      "남": 347,
      "납": 348,
      "났": 349,
      "낭": 350,
      "낮": 351,
      "내": 352,
      "낸": 353,
      "낼": 354,
      "냄": 355,
      "냈": 356,
      "냉": 357,
      "냐": 358,
      "냥": 359,
      "너": 360,
      "널": 361,
      "넓": 362,
      "넘": 363,
      "넛": 364,
      "넝": 365,
      "넣": 366,
      "네": 367,
      "넷": 368,
      "녀": 369,
      "녁": 370,
      "년": 371,
      "노": 372,
      "녹": 373,
      "논": 374,
      "놀": 375,
      "농": 376,
      "높": 377,
      "놓": 378,
      "누": 379,
      "눈": 380,
      "눌": 381,
      "뉘": 382,
      "뉜": 383,
      "뉴": 384,
      "느": 385,
      "늑": 386,
      "는": 387,
      "늘": 388,
      "능": 389,
      "늬": 390,
      "니": 391,
      "닌": 392,
      "닐": 393,
      "님": 394,
      "다": 395,
      "닥": 396,
      "단": 397,
      "닫": 398,
      "달": 399,
      "닮": 400,
      "담": 401,
      "답": 402,
      "닷": 403,
      "당": 404,
      "닿": 405,
      "대": 406,
      "댐": 407,
      "댓": 408,
      "더": 409,
      "덕": 410,
      "던": 411,
      "덜": 412,
      "덟": 413,
      "덧": 414,
      "덮": 415,
      "데": 416,
      "도": 417,
      "독": 418,
      "돌": 419,
      "동": 420,
      "돼": 421,
      "되": 422,
      "된": 423,
      "될": 424,
      "두": 425,
      "둑": 426,
      "둘": 427,
      "둠": 428,
      "둡": 429,
      "둥": 430,
      "뒤": 431,
      "뒷": 432,
      "드": 433,
      "득": 434,
      "든": 435,
      "들": 436,
      "듭": 437,
      "등": 438,
      "디": 439,
      "따": 440,
      "딸": 441,
      "땅": 442,
      "때": 443,
      "떠": 444,
      "떤": 445,
      "떨": 446,
      "또": 447,
      "똑": 448,
      "뚜": 449,
      "뚫": 450,
      "뛰": 451,
      "뜀": 452,
      "뜨": 453,
      "뜻": 454,
      "라": 455,
      "락": 456,
      "란": 457,
      "람": 458,
      "랍": 459,
      "랐": 460,
      "랑": 461,
      "래": 462,
      "랜": 463,
      "램": 464,
      "랫": 465,
      "략": 466,
      "량": 467,
      "러": 468,
      "런": 469,
      "럴": 470,
      "럼": 471,
      "럽": 472,
      "렇": 473,
      "레": 474,
      "려": 475,
      "력": 476,
      "련": 477,
      "렬": 478,
      "렴": 479,
      "렸": 480,
      "령": 481,
      "례": 482,
      "로": 483,
      "록": 484,
      "론": 485,
      "롤": 486,
      "롱": 487,
      "뢰": 488,
      "료": 489,
      "룔": 490,
      "루": 491,
      "룬": 492,
      "룰": 493,
      "룸": 494,
      "룹": 495,
      "룽": 496,
      "류": 497,
      "륙": 498,
      "률": 499,
      "륨": 500,
      "르": 501,
      "른": 502,
      "를": 503,
      "름": 504,
      "릇": 505,
      "리": 506,
      "릭": 507,
      "린": 508,
      "릴": 509,
      "림": 510,
      "립": 511,
      "릿": 512,
      "링": 513,
      "마": 514,
      "막": 515,
      "만": 516,
      "많": 517,
      "말": 518,
      "맛": 519,
      "망": 520,
      "맞": 521,
      "매": 522,
      "맥": 523,
      "맨": 524,
      "맹": 525,
      "머": 526,
      "먹": 527,
      "먼": 528,
      "멀": 529,
      "멈": 530,
      "멍": 531,
      "메": 532,
      "며": 533,
      "면": 534,
      "명": 535,
      "몇": 536,
      "모": 537,
      "목": 538,
      "몫": 539,
      "몬": 540,
      "몰": 541,
      "몸": 542,
      "못": 543,
      "무": 544,
      "묶": 545,
      "문": 546,
      "물": 547,
      "뭉": 548,
      "뮤": 549,
      "므": 550,
      "미": 551,
      "믹": 552,
      "민": 553,
      "밀": 554,
      "및": 555,
      "밑": 556,
      "바": 557,
      "박": 558,
      "밖": 559,
      "반": 560,
      "받": 561,
      "발": 562,
      "밝": 563,
      "밟": 564,
      "밤": 565,
      "밥": 566,
      "방": 567,
      "밭": 568,
      "배": 569,
      "백": 570,
      "버": 571,
      "번": 572,
      "벌": 573,
      "범": 574,
      "법": 575,
      "베": 576,
      "벡": 577,
      "벤": 578,
      "벨": 579,
      "벳": 580,
      "벽": 581,
      "변": 582,
      "별": 583,
      "병": 584,
      "보": 585,
      "복": 586,
      "본": 587,
      "볼": 588,
      "봄": 589,
      "봇": 590,
      "봉": 591,
      "봤": 592,
      "부": 593,
      "북": 594,
      "분": 595,
      "불": 596,
      "붙": 597,
      "브": 598,
      "블": 599,
      "비": 600,
      "빈": 601,
      "빌": 602,
      "빗": 603,
      "빛": 604,
      "빠": 605,
      "빨": 606,
      "빵": 607,
      "빼": 608,
      "뺀": 609,
      "뺑": 610,
      "뼈": 611,
      "뽑": 612,
      "뿌": 613,
      "뿐": 614,
      "뿔": 615,
      "사": 616,
      "산": 617,
      "살": 618,
      "삼": 619,
      "삿": 620,
      "상": 621,
      "새": 622,
      "색": 623,
      "생": 624,
      "서": 625,
      "석": 626,
      "섞": 627,
      "선": 628,
      "설": 629,
      "섬": 630,
      "섭": 631,
      "섯": 632,
      "성": 633,
      "세": 634,
      "센": 635,
      "셀": 636,
      "셋": 637,
      "셔": 638,
      "션": 639,
      "셜": 640,
      "소": 641,
      "속": 642,
      "손": 643,
      "솔": 644,
      "솟": 645,
      "송": 646,
      "쇄": 647,
      "쇠": 648,
      "수": 649,
      "숙": 650,
      "순": 651,
      "술": 652,
      "숨": 653,
      "숫": 654,
      "숭": 655,
      "쉬": 656,
      "쉴": 657,
      "슘": 658,
      "스": 659,
      "슬": 660,
      "습": 661,
      "슷": 662,
      "승": 663,
      "시": 664,
      "식": 665,
      "신": 666,
      "실": 667,
      "심": 668,
      "십": 669,
      "싶": 670,
      "싸": 671,
      "쌀": 672,
      "쌍": 673,
      "쌓": 674,
      "써": 675,
      "썼": 676,
      "쏘": 677,
      "쓰": 678,
      "쓴": 679,
      "씨": 680,
      "씩": 681,
      "씬": 682,
      "아": 683,
      "악": 684,
      "안": 685,
      "앉": 686,
      "않": 687,
      "알": 688,
      "암": 689,
      "압": 690,
      "았": 691,
      "앙": 692,
      "앞": 693,
      "애": 694,
      "액": 695,
      "앰": 696,
      "야": 697,
      "약": 698,
      "양": 699,
      "어": 700,
      "억": 701,
      "언": 702,
      "얻": 703,
      "얼": 704,
      "업": 705,
      "없": 706,
      "었": 707,
      "에": 708,
      "엔": 709,
      "엘": 710,
      "여": 711,
      "역": 712,
      "연": 713,
      "열": 714,
      "염": 715,
      "였": 716,
      "영": 717,
      "옆": 718,
      "예": 719,
      "오": 720,
      "온": 721,
      "올": 722,
      "옮": 723,
      "옳": 724,
      "옷": 725,
      "와": 726,
      "완": 727,
      "왔": 728,
      "외": 729,
      "왼": 730,
      "요": 731,
      "용": 732,
      "우": 733,
      "운": 734,
      "울": 735,
      "움": 736,
      "웃": 737,
      "워": 738,
      "원": 739,
      "월": 740,
      "웠": 741,
      "웹": 742,
      "위": 743,
      "윗": 744,
      "유": 745,
      "육": 746,
      "윤": 747,
      "율": 748,
      "융": 749,
      "으": 750,
      "은": 751,
      "을": 752,
      "음": 753,
      "응": 754,
      "의": 755,
      "이": 756,
      "익": 757,
      "인": 758,
      "일": 759,
      "읽": 760,
      "임": 761,
      "입": 762,
      "잇": 763,
      "있": 764,
      "자": 765,
      "작": 766,
      "잔": 767,
      "잘": 768,
      "잠": 769,
      "잡": 770,
      "장": 771,
      "재": 772,
      "잴": 773,
      "쟁": 774,
      "저": 775,
      "적": 776,
      "전": 777,
      "절": 778,
      "점": 779,
      "접": 780,
      "정": 781,
      "제": 782,
      "져": 783,
      "졌": 784,
      "조": 785,
      "족": 786,
      "존": 787,
      "졸": 788,
      "종": 789,
      "좋": 790,
      "좌": 791,
      "주": 792,
      "죽": 793,
      "준": 794,
      "줄": 795,
      "중": 796,
      "즈": 797,
      "즉": 798,
      "증": 799,
      "지": 800,
      "직": 801,
      "진": 802,
      "질": 803,
      "짐": 804,
      "집": 805,
      "짓": 806,
      "징": 807,
      "짜": 808,
      "짝": 809,
      "짧": 810,
      "째": 811,
      "쪽": 812,
      "쫄": 813,
      "찍": 814,
      "차": 815,
      "착": 816,
      "찬": 817,
      "찰": 818,
      "참": 819,
      "찹": 820,
      "창": 821,
      "찾": 822,
      "채": 823,
      "책": 824,
      "처": 825,
      "척": 826,
      "천": 827,
      "철": 828,
      "첨": 829,
      "첩": 830,
      "첫": 831,
      "청": 832,
      "체": 833,
      "쳐": 834,
      "쳤": 835,
      "초": 836,
      "촉": 837,
      "촌": 838,
      "총": 839,
      "최": 840,
      "추": 841,
      "축": 842,
      "춘": 843,
      "출": 844,
      "충": 845,
      "취": 846,
      "츠": 847,
      "측": 848,
      "층": 849,
      "치": 850,
      "칙": 851,
      "친": 852,
      "칠": 853,
      "침": 854,
      "칭": 855,
      "카": 856,
      "칸": 857,
      "칼": 858,
      "커": 859,
      "컬": 860,
      "컴": 861,
      "컵": 862,
      "컷": 863,
      "케": 864,
      "켓": 865,
      "켜": 866,
      "켤": 867,
      "켰": 868,
      "코": 869,
      "콘": 870,
      "콜": 871,
      "콩": 872,
      "쿠": 873,
      "쿨": 874,
      "퀴": 875,
      "크": 876,
      "큰": 877,
      "클": 878,
      "큼": 879,
      "키": 880,
      "킨": 881,
      "킬": 882,
      "타": 883,
      "탁": 884,
      "탄": 885,
      "탈": 886,
      "탐": 887,
      "탑": 888,
      "탔": 889,
      "탕": 890,
      "태": 891,
      "택": 892,
      "탱": 893,
      "터": 894,
      "턴": 895,
      "털": 896,
      "테": 897,
      "텐": 898,
      "텔": 899,
      "템": 900,
      "토": 901,
      "톤": 902,
      "통": 903,
      "퇴": 904,
      "투": 905,
      "퉁": 906,
      "튀": 907,
      "트": 908,
      "특": 909,
      "튼": 910,
      "틀": 911,
      "틈": 912,
      "티": 913,
      "틱": 914,
      "팀": 915,
      "파": 916,
      "판": 917,
      "팔": 918,
      "팥": 919,
      "패": 920,
      "팽": 921,
      "퍼": 922,
      "펌": 923,
      "페": 924,
      "펜": 925,
      "펠": 926,
      "펭": 927,
      "편": 928,
      "펼": 929,
      "평": 930,
      "폐": 931,
      "포": 932,
      "폭": 933,
      "폰": 934,
      "폼": 935,
      "표": 936,
      "푼": 937,
      "풀": 938,
      "품": 939,
      "풍": 940,
      "퓨": 941,
      "프": 942,
      "플": 943,
      "피": 944,
      "픽": 945,
      "필": 946,
      "핍": 947,
      "하": 948,
      "학": 949,
      "한": 950,
      "할": 951,
      "함": 952,
      "합": 953,
      "항": 954,
      "해": 955,
      "핵": 956,
      "핸": 957,
      "햄": 958,
      "햇": 959,
      "했": 960,
      "행": 961,
      "향": 962,
      "허": 963,
      "헌": 964,
      "험": 965,
      "헤": 966,
      "혀": 967,
      "현": 968,
      "혈": 969,
      "협": 970,
      "혔": 971,
      "형": 972,
      "호": 973,
      "혼": 974,
      "홀": 975,
      "홉": 976,
      "홍": 977,
      "화": 978,
      "확": 979,
      "환": 980,
      "활": 981,
      "황": 982,
      "회": 983,
      "획": 984,
      "횟": 985,
      "효": 986,
      "후": 987,
      "훨": 988,
      "휘": 989,
      "휴": 990,
      "흐": 991,
      "흘": 992,
      "흙": 993,
      "흡": 994,
      "흥": 995,
      "희": 996,
      "흰": 997,
      "히": 998,
      "힌": 999,
      "힐": 1000,
      "힘": 1001,
      "＊": 1002,
      "，": 1003,
      "：": 1004,
      "＜": 1005,
      "～": 1006,
      "##필": 1007,
      "##은": 1008,
      "##머": 1009,
      "##니": 1010,
      "##를": 1011,
      "##규": 1012,
      "##분": 1013,
      "##포": 1014,
      "##이": 1015,
      "##다": 1016,
      "##교": 1017,
      "##의": 1018,
      "##박": 1019,
      "##n": 1020,
      "##u": 1021,
      "##s": 1022,
      "##e": 1023,
      "##d": 1024,
      "##6": 1025,
      "##1": 1026,
      "##질": 1027,
      "##민": 1028,
      "##구": 1029,
      "##수": 1030,
      "##가": 1031,
      "##신": 1032,
      "##사": 1033,
      "##물": 1034,
      "##관": 1035,
      "##출": 1036,
      "##호": 1037,
      "##조": 1038,
      "##와": 1039,
      "##리": 1040,
      "##듭": 1041,
      "##한": 1042,
      "##격": 1043,
      "##일": 1044,
      "##에": 1045,
      "##인": 1046,
      "##서": 1047,
      "##는": 1048,
      "##계": 1049,
      "##되": 1050,
      "##어": 1051,
      "##성": 1052,
      "##원": 1053,
      "##생": 1054,
      "##뉜": 1055,
      "##부": 1056,
      "##로": 1057,
      "##대": 1058,
      "##개": 1059,
      "##체": 1060,
      "##량": 1061,
      "##란": 1062,
      "##색": 1063,
      "##으": 1064,
      "##면": 1065,
      "##획": 1066,
      "##돌": 1067,
      "##하": 1068,
      "##만": 1069,
      "##유": 1070,
      "##낙": 1071,
      "##시": 1072,
      "##킬": 1073,
      "##학": 1074,
      "##보": 1075,
      "##므": 1076,
      "##기": 1077,
      "##록": 1078,
      "##열": 1079,
      "##우": 1080,
      "##지": 1081,
      "##댓": 1082,
      "##값": 1083,
      "##라": 1084,
      "##벨": 1085,
      "##행": 1086,
      "##을": 1087,
      "##여": 1088,
      "##져": 1089,
      "##채": 1090,
      "##점": 1091,
      "##중": 1092,
      "##반": 1093,
      "##전": 1094,
      "##힌": 1095,
      "##류": 1096,
      "##2": 1097,
      "##월": 1098,
      "##9": 1099,
      "##5": 1100,
      "##ⅱ": 1101,
      "##용": 1102,
      "##할": 1103,
      "##였": 1104,
      "##고": 1105,
      "##법": 1106,
      "##식": 1107,
      "##히": 1108,
      "##내": 1109,
      "##운": 1110,
      "##앙": 1111,
      "##년": 1112,
      "##너": 1113,
      "##뛰": 1114,
      "##터": 1115,
      "##넷": 1116,
      "##꼴": 1117,
      "##과": 1118,
      "##장": 1119,
      "##간": 1120,
      "##었": 1121,
      "##씩": 1122,
      "##렸": 1123,
      "##i": 1124,
      "##번": 1125,
      "##석": 1126,
      "##편": 1127,
      "##될": 1128,
      "##재": 1129,
      "##발": 1130,
      "##람": 1131,
      "##려": 1132,
      "##각": 1133,
      "##삼": 1134,
      "##형": 1135,
      "##소": 1136,
      "##등": 1137,
      "##율": 1138,
      "##동": 1139,
      "##아": 1140,
      "##나": 1141,
      "##합": 1142,
      "##차": 1143,
      "##르": 1144,
      "##게": 1145,
      "##작": 1146,
      "##3": 1147,
      "##0": 1148,
      "##오": 1149,
      "##환": 1150,
      "##정": 1151,
      "##함": 1152,
      "##도": 1153,
      "##주": 1154,
      "##뉴": 1155,
      "##슬": 1156,
      "##실": 1157,
      "##표": 1158,
      "##항": 1159,
      "##억": 1160,
      "##입": 1161,
      "##자": 1162,
      "##급": 1163,
      "##뢰": 1164,
      "##공": 1165,
      "##족": 1166,
      "##통": 1167,
      "##4": 1168,
      "##집": 1169,
      "##단": 1170,
      "##속": 1171,
      "##해": 1172,
      "##득": 1173,
      "##늬": 1174,
      "##력": 1175,
      "##줄": 1176,
      "##러": 1177,
      "##야": 1178,
      "##쳐": 1179,
      "##국": 1180,
      "##변": 1181,
      "##명": 1182,
      "##모": 1183,
      "##m": 1184,
      "##때": 1185,
      "##미": 1186,
      "##스": 1187,
      "##문": 1188,
      "##제": 1189,
      "##섯": 1190,
      "##육": 1191,
      "##응": 1192,
      "##된": 1193,
      "##까": 1194,
      "##큼": 1195,
      "##평": 1196,
      "##킨": 1197,
      "##드": 1198,
      "##둑": 1199,
      "##알": 1200,
      "##린": 1201,
      "##후": 1202,
      "##들": 1203,
      "##날": 1204,
      "##칙": 1205,
      "##택": 1206,
      "##험": 1207,
      "##활": 1208,
      "##눌": 1209,
      "##회": 1210,
      "##균": 1211,
      "##폭": 1212,
      "##건": 1213,
      "##책": 1214,
      "##적": 1215,
      "##심": 1216,
      "##왔": 1217,
      "##커": 1218,
      "##피": 1219,
      "##승": 1220,
      "##팀": 1221,
      "##그": 1222,
      "##온": 1223,
      "##화": 1224,
      "##권": 1225,
      "##콜": 1226,
      "##릿": 1227,
      "##트": 1228,
      "##레": 1229,
      "##프": 1230,
      "##k": 1231,
      "##설": 1232,
      "##녀": 1233,
      "##끼": 1234,
      "##마": 1235,
      "##했": 1236,
      "##쪽": 1237,
      "##뀌": 1238,
      "##천": 1239,
      "##댐": 1240,
      "##태": 1241,
      "##있": 1242,
      "##폰": 1243,
      "##능": 1244,
      "##임": 1245,
      "##며": 1246,
      "##악": 1247,
      "##연": 1248,
      "##랑": 1249,
      "##진": 1250,
      "##짓": 1251,
      "##객": 1252,
      "##근": 1253,
      "##선": 1254,
      "##워": 1255,
      "##겠": 1256,
      "##매": 1257,
      "##곱": 1258,
      "##비": 1259,
      "##위": 1260,
      "##붙": 1261,
      "##업": 1262,
      "##째": 1263,
      "##겨": 1264,
      "##봉": 1265,
      "##역": 1266,
      "##액": 1267,
      "##뀐": 1268,
      "##품": 1269,
      "##○": 1270,
      "##광": 1271,
      "##판": 1272,
      "##친": 1273,
      "##농": 1274,
      "##습": 1275,
      "##살": 1276,
      "##별": 1277,
      "##방": 1278,
      "##복": 1279,
      "##안": 1280,
      "##카": 1281,
      "##길": 1282,
      "##릇": 1283,
      "##켜": 1284,
      "##결": 1285,
      "##핍": 1286,
      "##상": 1287,
      "##꾸": 1288,
      "##달": 1289,
      "##빠": 1290,
      "##던": 1291,
      "##무": 1292,
      "##갈": 1293,
      "##누": 1294,
      "##음": 1295,
      "##벽": 1296,
      "##곡": 1297,
      "##토": 1298,
      "##양": 1299,
      "##향": 1300,
      "##칠": 1301,
      "##치": 1302,
      "##송": 1303,
      "##궤": 1304,
      "##탄": 1305,
      "##톤": 1306,
      "##졌": 1307,
      "##래": 1308,
      "##철": 1309,
      "##웃": 1310,
      "##거": 1311,
      "##밀": 1312,
      "##펜": 1313,
      "##순": 1314,
      "##확": 1315,
      "##률": 1316,
      "##립": 1317,
      "##멍": 1318,
      "##산": 1319,
      "##말": 1320,
      "##웠": 1321,
      "##닥": 1322,
      "##8": 1323,
      "##파": 1324,
      "##감": 1325,
      "##쇄": 1326,
      "##직": 1327,
      "##았": 1328,
      "##링": 1329,
      "##릴": 1330,
      "##홉": 1331,
      "##휴": 1332,
      "##바": 1333,
      "##목": 1334,
      "##엔": 1335,
      "##효": 1336,
      "##솟": 1337,
      "##버": 1338,
      "##료": 1339,
      "##절": 1340,
      "##약": 1341,
      "##윤": 1342,
      "##처": 1343,
      "##키": 1344,
      "##당": 1345,
      "##받": 1346,
      "##타": 1347,
      "##크": 1348,
      "##림": 1349,
      "##금": 1350,
      "##섭": 1351,
      "##접": 1352,
      "##저": 1353,
      "##녁": 1354,
      "##7": 1355,
      "##준": 1356,
      "##세": 1357,
      "##콘": 1358,
      "##극": 1359,
      "##l": 1360,
      "##q": 1361,
      "##r": 1362,
      "##깥": 1363,
      "##두": 1364,
      "##요": 1365,
      "##g": 1366,
      "##외": 1367,
      "##갔": 1368,
      "##앉": 1369,
      "##널": 1370,
      "##투": 1371,
      "##손": 1372,
      "##탕": 1373,
      "##뿐": 1374,
      "##련": 1375,
      "##염": 1376,
      "##익": 1377,
      "##령": 1378,
      "##칭": 1379,
      "##눈": 1380,
      "##례": 1381,
      "##흡": 1382,
      "##울": 1383,
      "##추": 1384,
      "##륨": 1385,
      "##것": 1386,
      "##첨": 1387,
      "##본": 1388,
      "##탑": 1389,
      "##층": 1390,
      "##퉁": 1391,
      "##축": 1392,
      "##난": 1393,
      "##황": 1394,
      "##종": 1395,
      "##즈": 1396,
      "##갑": 1397,
      "##융": 1398,
      "##티": 1399,
      "##느": 1400,
      "##궁": 1401,
      "##p": 1402,
      "##벡": 1403,
      "##더": 1404,
      "##덕": 1405,
      "##름": 1406,
      "##o": 1407,
      "##압": 1408,
      "##켓": 1409,
      "##맥": 1410,
      "##낭": 1411,
      "##데": 1412,
      "##강": 1413,
      "##놓": 1414,
      "##튼": 1415,
      "##걀": 1416,
      "##빛": 1417,
      "##없": 1418,
      "##랍": 1419,
      "##롱": 1420,
      "##창": 1421,
      "##넓": 1422,
      "##팔": 1423,
      "##귤": 1424,
      "##북": 1425,
      "##컴": 1426,
      "##퓨": 1427,
      "##v": 1428,
      "##남": 1429,
      "##렴": 1430,
      "##케": 1431,
      "##탁": 1432,
      "##불": 1433,
      "##루": 1434,
      "##뿔": 1435,
      "##베": 1436,
      "##잔": 1437,
      "##검": 1438,
      "##청": 1439,
      "##블": 1440,
      "##뜨": 1441,
      "##긴": 1442,
      "##막": 1443,
      "##페": 1444,
      "##른": 1445,
      "##귄": 1446,
      "##몬": 1447,
      "##둥": 1448,
      "##혈": 1449,
      "##램": 1450,
      "##켰": 1451,
      "##랫": 1452,
      "##취": 1453,
      "##쉬": 1454,
      "##펠": 1455,
      "##략": 1456,
      "##벌": 1457,
      "##락": 1458,
      "##숫": 1459,
      "##메": 1460,
      "##착": 1461,
      "##올": 1462,
      "##께": 1463,
      "##낸": 1464,
      "##증": 1465,
      "##센": 1466,
      "##병": 1467,
      "##영": 1468,
      "##군": 1469,
      "##탐": 1470,
      "##─": 1471,
      "##술": 1472,
      "##배": 1473,
      "##촌": 1474,
      "##플": 1475,
      "##밥": 1476,
      "##픽": 1477,
      "##템": 1478,
      "##깔": 1479,
      "##랐": 1480,
      "##네": 1481,
      "##브": 1482,
      "##담": 1483,
      "##같": 1484,
      "##못": 1485,
      "##팽": 1486,
      "##끝": 1487,
      "##움": 1488,
      "##경": 1489,
      "##찰": 1490,
      "##봇": 1491,
      "##렬": 1492,
      "##뚜": 1493,
      "##껑": 1494,
      "##흐": 1495,
      "##났": 1496,
      "##b": 1497,
      "##c": 1498,
      "##f": 1499,
      "##h": 1500,
      "##츠": 1501,
      "##컬": 1502,
      "##핵": 1503,
      "##럴": 1504,
      "##믹": 1505,
      "##～": 1506,
      "##좌": 1507,
      "##냥": 1508,
      "##닌": 1509,
      "##망": 1510,
      "##론": 1511,
      "##납": 1512,
      "##디": 1513,
      "##션": 1514,
      "##볼": 1515,
      "##백": 1516,
      "##턴": 1517,
      "##둠": 1518,
      "##릭": 1519,
      "##돼": 1520,
      "##a": 1521,
      "##t": 1522,
      "##헌": 1523,
      "##혀": 1524,
      "##희": 1525,
      "##혼": 1526,
      "##둘": 1527,
      "##컷": 1528,
      "##애": 1529,
      "##힐": 1530,
      "##패": 1531,
      "##뀔": 1532,
      "##찬": 1533,
      "##측": 1534,
      "##◯": 1535,
      "##독": 1536,
      "##폼": 1537,
      "##님": 1538,
      "##잡": 1539,
      "##짐": 1540,
      "##ⅰ": 1541,
      "##런": 1542,
      "##밭": 1543,
      "##짜": 1544,
      "##걸": 1545,
      "##쌍": 1546,
      "##숙": 1547,
      "##틀": 1548,
      "##럼": 1549,
      "##텐": 1550,
      "##셜": 1551,
      "##끄": 1552,
      "##륙": 1553,
      "##귀": 1554,
      "##언": 1555,
      "##든": 1556,
      "##김": 1557,
      "##춘": 1558,
      "##렇": 1559,
      "##룸": 1560,
      "##먼": 1561,
      "##충": 1562,
      "##z": 1563,
      "##퀴": 1564,
      "##초": 1565,
      "##코": 1566,
      "##♩": 1567,
      "##닫": 1568,
      "##최": 1569,
      "##룹": 1570,
      "##테": 1571,
      "##쌀": 1572,
      "##씬": 1573,
      "##현": 1574,
      "##칸": 1575,
      "##클": 1576,
      "##럽": 1577,
      "##낼": 1578,
      "##㉡": 1579,
      "##넝": 1580,
      "##룽": 1581,
      "##섬": 1582,
      "##삿": 1583,
      "##쉴": 1584,
      "##잇": 1585,
      "##퇴": 1586,
      "##룔": 1587,
      "##틱": 1588,
      "##룰": 1589,
      "##w": 1590,
      "##혔": 1591,
      "##늘": 1592,
      "##슷": 1593,
      "##벳": 1594,
      "##빌": 1595,
      "##♪": 1596,
      "##새": 1597,
      "##숭": 1598,
      "##뒤": 1599,
      "##싸": 1600,
      "##넛": 1601,
      "##겼": 1602,
      "##닐": 1603,
      "##폐": 1604,
      "##칼": 1605,
      "##첩": 1606,
      "##봤": 1607,
      "##완": 1608,
      "##탈": 1609,
      "##횟": 1610,
      "##맞": 1611,
      "##몫": 1612,
      "##답": 1613,
      "##꿴": 1614,
      "##슘": 1615,
      "##쟁": 1616,
      "##룬": 1617,
      "##털": 1618,
      "##둡": 1619,
      "##쳤": 1620,
      "##덟": 1621,
      "##찾": 1622,
      "##롤": 1623,
      "##랜": 1624,
      "##글": 1625,
      "##냐": 1626,
      "##꾼": 1627,
      "##냈": 1628,
      "##탱": 1629,
      "##떠": 1630,
      "##앞": 1631,
      "##핸": 1632,
      "##맹": 1633,
      "##졸": 1634,
      "##닷": 1635,
      "##틈": 1636,
      "##넘": 1637,
      "##★": 1638,
      "##노": 1639,
      "##높": 1640,
      "##떤": 1641,
      "##에서": 1642,
      "##이다": 1643,
      "##으로": 1644,
      "##하는": 1645,
      "##한다": 1646,
      "##이고": 1647,
      "##하여": 1648,
      "un": 1649,
      "##하고": 1650,
      "##각형": 1651,
      "##하였": 1652,
      "##us": 1653,
      "##ed": 1654,
      "unus": 1655,
      "unused": 1656,
      "##부터": 1657,
      "##까지": 1658,
      "##므로": 1659,
      "##에는": 1660,
      "##하였다": 1661,
      "##함수": 1662,
      "##려고": 1663,
      "이다": 1664,
      "##하면": 1665,
      "##다고": 1666,
      "##수이다": 1667,
      "##도록": 1668,
      "##하기": 1669,
      "##수가": 1670,
      "자연": 1671,
      "##삼각형": 1672,
      "##었다": 1673,
      "##들의": 1674,
      "경우": 1675,
      "에서": 1676,
      "하자": 1677,
      "선택": 1678,
      "##이므로": 1679,
      "확률": 1680,
      "##사각형": 1681,
      "##00": 1682,
      "##까지의": 1683,
      "그림": 1684,
      "##이면": 1685,
      "##이라": 1686,
      "##하려고": 1687,
      "자연수": 1688,
      "만족": 1689,
      "##되는": 1690,
      "##보다": 1691,
      "##집합": 1692,
      "##수를": 1693,
      "평행": 1694,
      "##수는": 1695,
      "##에서는": 1696,
      "부분": 1697,
      "##학생": 1698,
      "##지는": 1699,
      "##하지": 1700,
      "##하였을": 1701,
      "단계": 1702,
      "##분포": 1703,
      "##수의": 1704,
      "좌표": 1705,
      "##는다": 1706,
      "##등분": 1707,
      "연속": 1708,
      "나타": 1709,
      "상수": 1710,
      "이동": 1711,
      "정의": 1712,
      "중심": 1713,
      "##수열": 1714,
      "##리는": 1715,
      "##시키": 1716,
      "##댓값": 1717,
      "##었을": 1718,
      "원점": 1719,
      "##시간": 1720,
      "##된다": 1721,
      "##으로부터": 1722,
      "감소": 1723,
      "다음": 1724,
      "이용": 1725,
      "직선": 1726,
      "포함": 1727,
      "##분면": 1728,
      "10": 1729,
      "가지": 1730,
      "단위": 1731,
      "평균": 1732,
      "학생": 1733,
      "##부분": 1734,
      "##기를": 1735,
      "##도를": 1736,
      "##도가": 1737,
      "##거나": 1738,
      "시간": 1739,
      "조사": 1740,
      "##량을": 1741,
      "##면체": 1742,
      "##기로": 1743,
      "##정식": 1744,
      "구입": 1745,
      "성립": 1746,
      "수직": 1747,
      "정수": 1748,
      "정사각형": 1749,
      "직각": 1750,
      "집합": 1751,
      "표준": 1752,
      "##어진": 1753,
      "##점을": 1754,
      "##더니": 1755,
      "계산": 1756,
      "만들": 1757,
      "미분": 1758,
      "방향": 1759,
      "사람": 1760,
      "생산": 1761,
      "선분": 1762,
      "양수": 1763,
      "이고": 1764,
      "이상": 1765,
      "이므로": 1766,
      "판매": 1767,
      "하나": 1768,
      "##이동": 1769,
      "##되어": 1770,
      "##량이": 1771,
      "##량의": 1772,
      "##시킨": 1773,
      "##기둥": 1774,
      "##장의": 1775,
      "##들을": 1776,
      "##이라고": 1777,
      "규칙": 1778,
      "나열": 1779,
      "대칭": 1780,
      "들어": 1781,
      "사용": 1782,
      "증가": 1783,
      "지나": 1784,
      "직원": 1785,
      "최대": 1786,
      "평면": 1787,
      "##머니": 1788,
      "##이었다": 1789,
      "##에게": 1790,
      "##개의": 1791,
      "##기는": 1792,
      "##했을": 1793,
      "##하기로": 1794,
      "무게": 1795,
      "배열": 1796,
      "보기": 1797,
      "삼각형": 1798,
      "이하": 1799,
      "자리": 1800,
      "정삼각형": 1801,
      "##이가": 1802,
      "##원이": 1803,
      "##량은": 1804,
      "##으면": 1805,
      "##기의": 1806,
      "##선과": 1807,
      "##한다고": 1808,
      "과정": 1809,
      "관람": 1810,
      "그래": 1811,
      "무한": 1812,
      "바둑": 1813,
      "반복": 1814,
      "상자": 1815,
      "숫자": 1816,
      "시행": 1817,
      "실수": 1818,
      "원소": 1819,
      "위치": 1820,
      "정육": 1821,
      "지점": 1822,
      "카드": 1823,
      "투과": 1824,
      "한다": 1825,
      "회전": 1826,
      "##가지": 1827,
      "##가능": 1828,
      "##사분면": 1829,
      "##인가": 1830,
      "##하도록": 1831,
      "##등변": 1832,
      "##도로": 1833,
      "##화율": 1834,
      "##선이": 1835,
      "##등변삼각형": 1836,
      "가정": 1837,
      "가입": 1838,
      "공통": 1839,
      "관계": 1840,
      "남학생": 1841,
      "대하여": 1842,
      "도로": 1843,
      "도형": 1844,
      "독립": 1845,
      "문자": 1846,
      "번째": 1847,
      "수학": 1848,
      "이차": 1849,
      "이루": 1850,
      "임의": 1851,
      "있다": 1852,
      "증명": 1853,
      "직사각형": 1854,
      "측정": 1855,
      "회사": 1856,
      "##규분포": 1857,
      "##구간": 1858,
      "##구공": 1859,
      "##수와": 1860,
      "##로그": 1861,
      "##로부터": 1862,
      "##란색": 1863,
      "##면의": 1864,
      "##평균": 1865,
      "##들은": 1866,
      "##에서의": 1867,
      "부분집합": 1868,
      "그래프": 1869,
      "가격": 1870,
      "거리": 1871,
      "경기": 1872,
      "관광": 1873,
      "꼭짓": 1874,
      "나무": 1875,
      "나누": 1876,
      "내접": 1877,
      "따라": 1878,
      "만원": 1879,
      "반원": 1880,
      "배정": 1881,
      "상수이다": 1882,
      "시작": 1883,
      "아이": 1884,
      "영역": 1885,
      "움직": 1886,
      "전송": 1887,
      "좌석": 1888,
      "출발": 1889,
      "표본": 1890,
      "홀수": 1891,
      "##면에": 1892,
      "##면과": 1893,
      "##하게": 1894,
      "##만을": 1895,
      "##지의": 1896,
      "##지고": 1897,
      "##등식": 1898,
      "##차가": 1899,
      "##도의": 1900,
      "##도는": 1901,
      "##명의": 1902,
      "##명을": 1903,
      "##선의": 1904,
      "##선을": 1905,
      "##거리": 1906,
      "##솟값": 1907,
      "##추출": 1908,
      "만족시키": 1909,
      "나타내": 1910,
      "결정": 1911,
      "과목": 1912,
      "기울": 1913,
      "길이": 1914,
      "모양": 1915,
      "문항": 1916,
      "사이": 1917,
      "사건": 1918,
      "사진": 1919,
      "산책": 1920,
      "상대": 1921,
      "서로": 1922,
      "소비": 1923,
      "순간": 1924,
      "신호": 1925,
      "여학생": 1926,
      "인구": 1927,
      "일반": 1928,
      "일치": 1929,
      "정사": 1930,
      "좌변": 1931,
      "참가": 1932,
      "함수": 1933,
      "##에도": 1934,
      "##하다": 1935,
      "##점으로": 1936,
      "##번호": 1937,
      "##자가": 1938,
      "##력을": 1939,
      "##끼리는": 1940,
      "##비용": 1941,
      "unk": 1942,
      "unused6": 1943,
      "unused1": 1944,
      "unused2": 1945,
      "unused9": 1946,
      "unused5": 1947,
      "unused3": 1948,
      "unused4": 1949,
      "unused8": 1950,
      "unused7": 1951,
      "평행이동": 1952,
      "미분가능": 1953,
      "ii": 1954,
      "구슬": 1955,
      "꺼내": 1956,
      "넓이": 1957,
      "대응": 1958,
      "등분": 1959,
      "등차": 1960,
      "만나": 1961,
      "반사": 1962,
      "배수": 1963,
      "분산": 1964,
      "색칠": 1965,
      "시험": 1966,
      "신뢰": 1967,
      "아래": 1968,
      "어두": 1969,
      "여행": 1970,
      "연결": 1971,
      "왼쪽": 1972,
      "우변": 1973,
      "이라": 1974,
      "일정": 1975,
      "자동": 1976,
      "지역": 1977,
      "지름": 1978,
      "체험": 1979,
      "최소": 1980,
      "최댓값": 1981,
      "통과": 1982,
      "##이기": 1983,
      "##사건": 1984,
      "##어나": 1985,
      "##대일": 1986,
      "##학교": 1987,
      "##학년": 1988,
      "##기가": 1989,
      "##지를": 1990,
      "##점의": 1991,
      "##도함수": 1992,
      "##표를": 1993,
      "##자의": 1994,
      "##자는": 1995,
      "##변화율": 1996,
      "##회에": 1997,
      "##선에": 1998,
      "##방정식": 1999,
      "등차수열": 2000,
      "16": 2001,
      "200": 2002,
      "결과": 2003,
      "계속": 2004,
      "구매": 2005,
      "나머": 2006,
      "내부": 2007,
      "높이": 2008,
      "대각": 2009,
      "등비": 2010,
      "로그": 2011,
      "방정식": 2012,
      "상태": 2013,
      "설치": 2014,
      "수열": 2015,
      "수렴": 2016,
      "순서": 2017,
      "예각": 2018,
      "이면": 2019,
      "이때": 2020,
      "이등분": 2021,
      "입력": 2022,
      "점근": 2023,
      "존재": 2024,
      "종류": 2025,
      "주머니": 2026,
      "지급": 2027,
      "짝수": 2028,
      "코스": 2029,
      "탑승": 2030,
      "판단": 2031,
      "##이었을": 2032,
      "##가고": 2033,
      "##사를": 2034,
      "##사탕": 2035,
      "##물의": 2036,
      "##는데": 2037,
      "##되고": 2038,
      "##어지는": 2039,
      "##원의": 2040,
      "##원을": 2041,
      "##으려고": 2042,
      "##만큼": 2043,
      "##중심": 2044,
      "##장에": 2045,
      "##형의": 2046,
      "##해서": 2047,
      "##해야": 2048,
      "##된다고": 2049,
      "##들이": 2050,
      "##마다": 2051,
      "##선은": 2052,
      "##하였고": 2053,
      "확률분포": 2054,
      "꼭짓점": 2055,
      "따라서": 2056,
      "산책로": 2057,
      "서로소": 2058,
      "12": 2059,
      "19": 2060,
      "2개": 2061,
      "가로": 2062,
      "검은": 2063,
      "게임": 2064,
      "경계": 2065,
      "계획": 2066,
      "고정": 2067,
      "기압": 2068,
      "내려": 2069,
      "등급": 2070,
      "막대": 2071,
      "만큼": 2072,
      "모집": 2073,
      "방법": 2074,
      "변곡": 2075,
      "분류": 2076,
      "불량": 2077,
      "사분": 2078,
      "상품": 2079,
      "생각": 2080,
      "세로": 2081,
      "수출": 2082,
      "실근": 2083,
      "역함수": 2084,
      "연장": 2085,
      "올라": 2086,
      "외접": 2087,
      "운동": 2088,
      "음향": 2089,
      "이웃": 2090,
      "이등변삼각형": 2091,
      "일대일": 2092,
      "입사": 2093,
      "작동": 2094,
      "저항": 2095,
      "적립": 2096,
      "전구": 2097,
      "전체": 2098,
      "절대": 2099,
      "제곱": 2100,
      "제외": 2101,
      "중점": 2102,
      "중앙": 2103,
      "첫째": 2104,
      "케이": 2105,
      "타일": 2106,
      "포물": 2107,
      "표시": 2108,
      "합격": 2109,
      "##이상": 2110,
      "##다리": 2111,
      "##사의": 2112,
      "##부등식": 2113,
      "##으며": 2114,
      "##면서": 2115,
      "##시켜": 2116,
      "##기에": 2117,
      "##라고": 2118,
      "##장에서": 2119,
      "##각기둥": 2120,
      "##형을": 2121,
      "##아리": 2122,
      "##르는": 2123,
      "##정규분포": 2124,
      "##자를": 2125,
      "##변수": 2126,
      "##명이": 2127,
      "##활동": 2128,
      "##끼리": 2129,
      "##있는": 2130,
      "##았다": 2131,
      "##았을": 2132,
      "##금을": 2133,
      "##난다": 2134,
      "##퓨터": 2135,
      "##하면서": 2136,
      "다음은": 2137,
      "바둑돌": 2138,
      "정육면체": 2139,
      "임의추출": 2140,
      "어두운": 2141,
      "자동차": 2142,
      "등비수열": 2143,
      "100": 2144,
      "20": 2145,
      "ma": 2146,
      "각각": 2147,
      "같다": 2148,
      "개수": 2149,
      "경로": 2150,
      "교통": 2151,
      "구성": 2152,
      "구간": 2153,
      "노란색": 2154,
      "다르": 2155,
      "단면": 2156,
      "당첨": 2157,
      "데시": 2158,
      "도시": 2159,
      "동전": 2160,
      "둘레": 2161,
      "뒷면": 2162,
      "등식": 2163,
      "라고": 2164,
      "바뀌": 2165,
      "발생": 2166,
      "배반": 2167,
      "범위": 2168,
      "붙여": 2169,
      "비용": 2170,
      "비율": 2171,
      "빨강": 2172,
      "사회": 2173,
      "사탕": 2174,
      "사분면": 2175,
      "상용": 2176,
      "소수": 2177,
      "시각": 2178,
      "실험": 2179,
      "에너": 2180,
      "여과": 2181,
      "연봉": 2182,
      "예를": 2183,
      "외부": 2184,
      "우승": 2185,
      "원판": 2186,
      "원뿔": 2187,
      "원기둥": 2188,
      "유리": 2189,
      "유지": 2190,
      "으로": 2191,
      "이와": 2192,
      "일부": 2193,
      "입체": 2194,
      "자료": 2195,
      "작성": 2196,
      "저장": 2197,
      "전력": 2198,
      "전화": 2199,
      "점프": 2200,
      "정보": 2201,
      "제1": 2202,
      "제품": 2203,
      "조건": 2204,
      "주문": 2205,
      "중복": 2206,
      "지수": 2207,
      "진열": 2208,
      "찬성": 2209,
      "참여": 2210,
      "초점": 2211,
      "최솟값": 2212,
      "켤레": 2213,
      "평가": 2214,
      "학급": 2215,
      "회원": 2216,
      "희망": 2217,
      "##이어": 2218,
      "##이하": 2219,
      "##이등분": 2220,
      "##구를": 2221,
      "##구에": 2222,
      "##가는": 2223,
      "##리를": 2224,
      "##리의": 2225,
      "##에만": 2226,
      "##되지": 2227,
      "##대로": 2228,
      "##하시": 2229,
      "##지가": 2230,
      "##지만": 2231,
      "##였다": 2232,
      "##장치": 2233,
      "##도시": 2234,
      "##적으로": 2235,
      "##별로": 2236,
      "##무게": 2237,
      "##률을": 2238,
      "##엔진": 2239,
      "##낸다": 2240,
      "##영역": 2241,
      "##하는데": 2242,
      "##하였더니": 2243,
      "##함수의": 2244,
      "직각이": 2245,
      "직각삼각형": 2246,
      "표준정규분포": 2247,
      "무게중심": 2248,
      "공통부분": 2249,
      "검은색": 2250,
      "불량품": 2251,
      "첫째항": 2252,
      "##다리꼴": 2253,
      "데시벨": 2254,
      "상용로그": 2255,
      "15": 2256,
      "3개": 2257,
      "4개": 2258,
      "kg": 2259,
      "가속": 2260,
      "가까": 2261,
      "개월": 2262,
      "경사": 2263,
      "고객": 2264,
      "공연": 2265,
      "과일": 2266,
      "교점": 2267,
      "구분": 2268,
      "그린": 2269,
      "극한": 2270,
      "극소": 2271,
      "극댓값": 2272,
      "금액": 2273,
      "기록": 2274,
      "기댓값": 2275,
      "까지": 2276,
      "나오": 2277,
      "내분": 2278,
      "노랑": 2279,
      "도착": 2280,
      "뒤집": 2281,
      "리터": 2282,
      "마름": 2283,
      "모둠": 2284,
      "모든": 2285,
      "몸무게": 2286,
      "바꾸": 2287,
      "반지": 2288,
      "방문": 2289,
      "방송": 2290,
      "버스": 2291,
      "변화": 2292,
      "부채": 2293,
      "블록": 2294,
      "비교": 2295,
      "산소": 2296,
      "설명": 2297,
      "세우": 2298,
      "수능": 2299,
      "실시": 2300,
      "아랫": 2301,
      "연립": 2302,
      "오른": 2303,
      "우리": 2304,
      "잘라": 2305,
      "장치": 2306,
      "장축": 2307,
      "전개": 2308,
      "전자": 2309,
      "점수": 2310,
      "제행": 2311,
      "종이": 2312,
      "주어": 2313,
      "증기": 2314,
      "지구": 2315,
      "지사": 2316,
      "지진": 2317,
      "처리": 2318,
      "처음": 2319,
      "최고": 2320,
      "추가": 2321,
      "추정": 2322,
      "칠해": 2323,
      "컴퓨터": 2324,
      "타원": 2325,
      "투수": 2326,
      "파란색": 2327,
      "표면": 2328,
      "학년": 2329,
      "현수": 2330,
      "화살": 2331,
      "##이는": 2332,
      "##이트": 2333,
      "##가격": 2334,
      "##는지": 2335,
      "##계수": 2336,
      "##생산": 2337,
      "##으므로": 2338,
      "##면에서": 2339,
      "##하자": 2340,
      "##시모": 2341,
      "##기와": 2342,
      "##지도록": 2343,
      "##값의": 2344,
      "##전에": 2345,
      "##장이": 2346,
      "##었고": 2347,
      "##편차": 2348,
      "##재료": 2349,
      "##등급": 2350,
      "##표준": 2351,
      "##항의": 2352,
      "##스템": 2353,
      "##제곱": 2354,
      "##회전": 2355,
      "##회에서": 2356,
      "##온도": 2357,
      "##쪽으로": 2358,
      "##연속": 2359,
      "##선으로": 2360,
      "##방향": 2361,
      "##밀도함수": 2362,
      "##th": 2363,
      "##하고자": 2364,
      "확률밀도함수": 2365,
      "좌표평": 2366,
      "정의역": 2367,
      "성립한다": 2368,
      "수직이등분": 2369,
      "방향으로": 2370,
      "##시킨다": 2371,
      "들어가": 2372,
      "직원뿔": 2373,
      "정육각형": 2374,
      "가정하면": 2375,
      "관계식": 2376,
      "신뢰구간": 2377,
      "나머지": 2378,
      "변곡점": 2379,
      "케이블": 2380,
      "##하시오": 2381,
      "직각이등변삼각형": 2382,
      "마름모": 2383,
      "반지름": 2384,
      "부채꼴": 2385,
      "증기압": 2386,
      "##시모집": 2387,
      "1개": 2388,
      "13": 2389,
      "25": 2390,
      "36": 2391,
      "가능": 2392,
      "가위": 2393,
      "값은": 2394,
      "개체": 2395,
      "건설": 2396,
      "것이다": 2397,
      "고장": 2398,
      "고등": 2399,
      "교차": 2400,
      "구역": 2401,
      "구별": 2402,
      "그리": 2403,
      "그려": 2404,
      "극대": 2405,
      "극솟값": 2406,
      "기대": 2407,
      "기체": 2408,
      "기억": 2409,
      "깃발": 2410,
      "꼭지": 2411,
      "끝점": 2412,
      "나라": 2413,
      "나왔": 2414,
      "날개": 2415,
      "놀이기": 2416,
      "놓여": 2417,
      "다항": 2418,
      "도달": 2419,
      "돌아": 2420,
      "둘러": 2421,
      "따르": 2422,
      "따른": 2423,
      "모서": 2424,
      "모두": 2425,
      "모평균": 2426,
      "밑면": 2427,
      "바닥": 2428,
      "번호": 2429,
      "보내": 2430,
      "봉투": 2431,
      "부여": 2432,
      "불연속": 2433,
      "빨간": 2434,
      "사은": 2435,
      "사물": 2436,
      "사원": 2437,
      "사과": 2438,
      "사각형": 2439,
      "사다리꼴": 2440,
      "산업": 2441,
      "삼차": 2442,
      "석유": 2443,
      "선발": 2444,
      "세트": 2445,
      "속력": 2446,
      "수신": 2447,
      "수면": 2448,
      "수도": 2449,
      "수요": 2450,
      "스티": 2451,
      "승차": 2452,
      "실행": 2453,
      "실내": 2454,
      "아니": 2455,
      "암호": 2456,
      "앞면": 2457,
      "어느": 2458,
      "어머니": 2459,
      "영화": 2460,
      "영희": 2461,
      "예상": 2462,
      "예측": 2463,
      "유니": 2464,
      "응시": 2465,
      "이내": 2466,
      "이후": 2467,
      "일본": 2468,
      "임피": 2469,
      "입장": 2470,
      "자가": 2471,
      "자신": 2472,
      "잡곡": 2473,
      "전하": 2474,
      "전년": 2475,
      "절편": 2476,
      "접속": 2477,
      "정규분포": 2478,
      "제2": 2479,
      "좌우": 2480,
      "주사": 2481,
      "주스": 2482,
      "주파": 2483,
      "지원": 2484,
      "지각": 2485,
      "진동": 2486,
      "차량": 2487,
      "추출": 2488,
      "치역": 2489,
      "태양": 2490,
      "통신": 2491,
      "투표": 2492,
      "필요": 2493,
      "학교": 2494,
      "한계": 2495,
      "환경": 2496,
      "##이를": 2497,
      "##이터": 2498,
      "##이거나": 2499,
      "##사변": 2500,
      "##사에서": 2501,
      "##어서": 2502,
      "##어져": 2503,
      "##하려": 2504,
      "##하거나": 2505,
      "##기구": 2506,
      "##지지": 2507,
      "##점에서": 2508,
      "##전력": 2509,
      "##장을": 2510,
      "##편차가": 2511,
      "##각뿔": 2512,
      "##소수": 2513,
      "##차를": 2514,
      "##르게": 2515,
      "##함을": 2516,
      "##자산": 2517,
      "##문제": 2518,
      "##들로": 2519,
      "##험군": 2520,
      "##진다": 2521,
      "##비를": 2522,
      "##비가": 2523,
      "##비는": 2524,
      "##위험군": 2525,
      "##액의": 2526,
      "##상품": 2527,
      "##던스": 2528,
      "##음을": 2529,
      "##버지": 2530,
      "##손실": 2531,
      "##없이": 2532,
      "평행사변": 2533,
      "연속함수": 2534,
      "##시키는": 2535,
      "##어진다": 2536,
      "대칭이동": 2537,
      "문자열": 2538,
      "표본평균": 2539,
      "순간변화율": 2540,
      "정사영": 2541,
      "##사탕은": 2542,
      "모집단": 2543,
      "사분원": 2544,
      "math": 2545,
      "제1사분면": 2546,
      "##방향으로": 2547,
      "스티커": 2548,
      "임피던스": 2549,
      "자가용": 2550,
      "주사위": 2551
    }
  }
}